{
  "7539420629350159": {
    "name": "Workbench",
    "tensor": "KLUv/WA2AR0DALQCAWWQkG4AAAAAIP9/EgAAAAGABAAAAAcAAACACAACBQYDCgOABACAAetA7hmg8JiUag3wgqJgHluQGogudXc/6C6gJELP7ePoDA7JzMkbPfO0lFlKN9aCNRaAXXlvyI2TAg=="
  },
  "1534621126189445": {
    "name": "Tailoring Booth",
    "tensor": "KLUv/WCWAZUDACQDAWWQkG4AAAAAIP9/FAAAAAGABAAAAA8AAAAIAIAJAAcMAA8QHwQKA4AEAIAAAcXugkAeoMDelpYDAAOqcRtboBTXkmz3auPJBW7VkpNRwWlY5jxtSIWVTYlMo2jOb8ZK5ikzEhBswZADt7El470BZQ=="
  },
  "7539420629350102": {
    "name": "Thermoblaster",
    "tensor": "KLUv/WBKAj0FADJFEx/AJQnMOv9/z8Xt4ijvo4w+uylTSknKJF+SMv2UpPw+iA8pMAQY+JrCFpIU7Wu+nzXUEL7dwlZyKPoU+2e3t5nS/fTnDygkmn9CjIMMMahgLhc2NADwgrEh4xFQCMYbCQWpnJT/VUgHW2CFR5Iu6PS22eO4m77cUXpLdpWTFi4FKugIzojhlB9gQHrcvfMsjKs25IgXspNrT4+SAwlxgubAH+Uf"
  },
  "1961861852831554": {
    "name": "Traditional Shelter Frame",
    "tensor": "KLUv/WCwEYUPAPQRAWWQkG4AAAAAIP9/9AAAAAEPAIAPHwCAHQAAAJkZAIAlLTU9RQBSAAAAEREAAFZaXmt4AIB5AAQAgAIAAAAxBgCACA4UFhwiKCowNjwAPT4GAABBQkVGSUpNTlFSVVZZWl1eYWJlZmlqbW5xcnV2eXp9foGChYaJio2OAAAAAgUAgJKAlpqeoqaqrrK2ur4AwQAAAIUCAADFyc3RAAAASgEAANXZ3eEAAAC0AAAA5ent8QAAAEgAAADzAAAA9ff5+/3/AQEDAQUHCQsNDxETFRcZGx0fISMlASYAEAoDBACAAAEAAwcAgJSYnKC4vMDEhwMAAM/V284BAADn7fP8BQELEQF4KSstLzM1Nzk7PT9BQ0VHSUtNTkDAxamFqYCAwKhQ7ACCgAAwAyANAAYSYCEk1hBNAAARBMiDBGSRAAACW3A5+BavOQ9RrRaZe8d74R8dC+B8KC0+jobB+WsPD/8u3J6heMa5upx599GgyA8SjyOkvEezKGXhDyI8wtcYoq94NDaQ/iLVS9OHr3GMNHRgb3c8I7Uu/2gu4NkIBAOMCIT+Hdlzo1/UGWUjcU4fAxzRSS8Y4JDUjSP5hCYZ01rOEHRI0urMZEZjMqMxmXHGWPLusDMCmRiEGjuLw/NsDEGHYDqWJw/wjStf+3U="
  },
  "3504752154366770": {
    "name": "Modern Shelter Frame",
    "tensor": "KLUv/WBQEX0PABYRQTfQHqEA+JkfBlw8PCce4pxc3AgnwC+BfCbESROlqiMUcsN1tXKLwfjuiA91a8ALs/Tcsmy8JOt7LgAuADMAGxcRPp7C7q42f4A7Os19RqiSgvK63r8OklHhuwt0/DyE+4D9v5ZxD/9KJtNoA1lYTiqpJtTb3//EtGRUNCS0/Kv+IJ8eZU4SefxXfmPNdSF+yiIM/hM/cJP1EpH2uy63Q8exN8WYIfBkHfnQwHiU4K2FRK+BIcHABlj71vZp+qu9GvWnoZ2VkYndsKdXl1ZgvyTyKEMMkoRwUEA4qAsHBTm43djWxri2rqycb5//lFOTUhLSEdFvBvTDs5P8dWyKMC8tQ48DgKeoscwEICDMIAHQArChAXASwAEg7ACCISAC+YD8IoEBW6gd/kN3NNvRFa7VulCPgK3FKOJvgG+8IQZVWAr8DGxiBjwixs8wkqWxXiFPoObGHkMaazmKhg308RqknYSPfYYw2AAzYnSoQ81YiStqaPQzBNjZa+RpxAfyEB24CS5efyPVW/6BYs8flLF9L4hEPnvNOUW4aDl7IwT58nZiJqm2X25haL/KD2us3kTMHYLeqcXBGmhDqg09xAyAMNQhM0DDMnITxxno7gcmE7pDa7FEXlnZXPvaff7ygKzsMphQE37rze/4VQ=="
  },
  "4313753143202106": {
    "name": "Space Age Shelter Frame",
    "tensor": "KLUv/WC4DWUKAPJNLjEwdZAAUqdePaBfox+RWdgQwHIe+XUe0umYJKfA6wcAFxeFrhPNxolwqLAkoJz5k+8BIbrvaRPISuBWLoVylWpJm05HOnpL3ehN9iKiIaFBgX583gPVe94Wz7sC+E6ODY1GZhYD8+LS8lZUUlBOTEhkIyEgHx4dHBsaGRtYVOxoj01EPGwIW0h4XS+r4FXdfPUAzlGfZm7aBcR4L95qp9gUu4QDjEHhdavmrl+p17nrsCwhfMlsJuICUahBqGkmIQxhCQmggjE6jhgSQEE01BPMBDNx8v+3tLQDW8ABUj3DchuXRk56oSMschMbZVQIqdq4Z9gGR9B0q/tLO/ZFXHruWCfDQGJGxyxGlXPjW3j7sRiDjrJZuZGPWVqkgUbZVszoxpYW4gbEd7XBGnkqDobnfxC63mjHz0jfVnXCZnrkqW4yVab/vvED"
  },
  "1825420459484848": {
    "name": "Stall Frame",
    "tensor": "KLUv/WDoAi0HABLHGSaASwAMRmOYwmFMY6XsVZoASpKSKzCYHDIk2kmxrf36+1c/7ZY8DxpMppKSpHg4m84feTgai76zqlKGCJ73QAGOYSUQVwdqkgqEOHg3tqAPf6jfnrp0FF+f/awf//whl4/i33JdkwxBqBHBV2ENRQegAiqy8RJAMjC+UFHBTEUTM/mr7LYBW0ALr3ffqQ+0v6QUkzF0TgHH08sf0XfQlPiomzz0MT2Yxlap86FZG9KAf5RpwC73M47TRrCDgx+KHkfp0abCxSeH1hGwhZEyZJgzjfe9LJVopo4geRLAE/cb3x8="
  },
  "7868809447633355": {
    "name": "Canopy Frame",
    "tensor": "KLUv/WByA60FAFQGAWWQkG4AAAAAIP9/WgAAAAEAAAB/AACACgAAAIEBAIAOEhYaHiIBAAArAIAsAIEBAAADBAcICwwPEBMUFxgbHB8gIyQnKC8wAQCAMgAAAJkBAIA4PkRGTFJYAFlaAAAADAqAAAE1qJHYW1hj2A5Qw5A0GBGACGEnbaH+/1cHW5AfHIvNIAXGTKYURAKXpEu5Cw/bA5AT7hcH/gaKVbjfDTkTSGoa3yCVfjItmA1emOpJ/wE="
  },
  "5013876656537945": {
    "name": "Thermolite",
    "tensor": "KLUv/WBwAc0DAHQDAWWQkG4AAAAAIP9/HAAAAAEAAAADAACABQAAAAcAAIAJAAwAgA0AAQIEgAYIAAkKBAqAAUDp7B2g8BjX2jeAAnM0e1sg5d9obL+GfiHJHPyjitqygRnl8AENscnBfTdaH+E25AR/Zz3H76/r0r4M7dK2b5w2ugw="
  },
  "7642096223334102": {
    "name": "Kitchen",
    "tensor": "KLUv/WDQAOUCAIQCAWWQkG4AAAAAIP9/DgAAAAGABAUAgAYAAx8AAAAhCoAAAQBAAAAArhYgoIJjYx1bIAUAgaWr+xIa0M9QPpxFUIRMgGQX5kOp02IDt7DnLW3YDmz4OTxsNgQS"
  },
  "6465116931230474": {
    "name": "Bench",
    "tensor": "KLUv/WA2AQ0DAJQCAWWQkG4AAAAAIP9/EgAAAAGABAAAAAcAAACACAACBQYMCgOABACAAcAZoBBVSrUG4IKqYB5bkKIlg9xM94PuAmKBe24fR41A2JmczKgzj/3sQr7bl8xIMHbJu0NuiBQ="
  },
  "663601322198230": {
    "name": "Fence",
    "tensor": "KLUv/WBiAeUDAIQDAWWQkG4AAAAAIP9/FgAAAAGABAAAAB8AAAAJAIAKAAIGCAwKA4AEAIABFA8AAAAICQMFAAYHRQEhoNAYFwQF8AKiYDRbYIpHklC9SaZcQ3ZEhnUziZnd8Z0uoCXS2a1xeoqGk5UpN3bd1vs01tm2lowhwGxC48Z+A/Y="
  },
  "7443636014830386": {
    "name": "Table",
    "tensor": "KLUv/WAmAa0DAIQDAWWQkG4AAAAAIP9/EgAAAAGABAAAAAcAAACACAACAACAAgQABQYMCgOABACAAAEQAwcDggAAAIcboJDsFDZrwAKrMHdbQAqzCmp4bcFvtilPWGS2T7dU2DSYMZwfgwOzc2WMfL5Vedbsg4fc3EQmGnJDpA=="
  },
  "6977805803201177": {
    "name": "T-Table",
    "tensor": "KLUv/WAWARUDAOQCAWWQkG4AAAAAIP9/EAAAAAGABAAAAAMAAAAGAIAHAAQAAIACAAMEAAwKAQHr7hUgwAIyIg9bkMKMLlyudlCjwmSTMg1uQUCEXICySydjeOB3+IRsyLWBX9ZBm8V7gyIB"
  },
  "1056387151531327": {
    "name": "Network Tower",
    "tensor": "KLUv/WCWAl0GAKLGFyOQyQgwtDB4FYbhM0EFqJ40ZYp7Aw7hcjubXRIS2tD+kvL7Hlt0IlGIBnPJKBKCVYTn2FL7Doa+L5kk4nCEBdfYLsCTfrSPjrsBvsZ+5x/86g/sP379G5XN4p8yZ0QDPKgByapQaj8D8IIp2jgRYIiipUBGwkRJUflVKQwHW2gFv368bfAaflUqDLpVY8vAFomBRebGLhmqh5+aD+FMIDgqjBFeioF2tjevGkqQisnFMCPN5WqcpppHd+DmH/aglg3sdu9ItSnU"
  },
  "3243584032760191": {
    "name": "Comms Tower",
    "tensor": "KLUv/WDeAV0FALLFEx+wJyj//w++7dAYZG85YhiN9CTaiJwjcv+fMsmUfvo9ksYjMdht1Hoc5lYc0rucWq0xzXChATsHsKiFS4DeXBBg68qfe/H0RGSCeEgUOVItoJGwSWFx6xvQgiGa21vAdL6Q7no9MCB6nK/JsvJb5VJG8blIcs0wIxsVMQ/OkifG9ZAz9pd6vo4947ROkif5It+45yxmBznmJvtlGCvW4uhyx60TV48XFQ=="
  },
  "5165478204705300": {
    "name": "Seed Mill",
    "tensor": "KLUv/WBeARUEAFQDAWWQkG4AAAAAIP9/GgAAAAEAAAAHAACABoAICgALAIAMAAECAwQFBksECoABFgAHAAkKRYUioLBe19IAcIJiRNUDW1hqhkRQ3Xl7dQTXEDPpLolzd3dHvLoAf6HhOI/NwIcwZJLQ7X29bb12co4zu29/v5wzw0TxgzO3d/gN/AM="
  },
  "3085780603082451": {
    "name": "Dye-O-Matic",
    "tensor": "KLUv/WCCAaUEANKEEBygMQCAPjKzzQkWAHROm5lNCAE88dK99N53l30HgIZJiKgE1D/F3bO4jGSDSucM+jnR2Y//UqN++u8/lgDyr7SWXCegcCoNmjUA0AIiqDJbQGqO0d24xgNnbZlzw3TPXEl8py79CO/tv9ZVKjANZgdH5kzwjJwSN7qXMIydgXvO7jQ7xnRl7y6ryb1DO+6NJQM="
  },
  "8176147131639241": {
    "name": "Angler's Table",
    "tensor": "KLUv/WA6Ae0DAGQDAWWQkG4AAAAAIP9/FgAAAAEAAAADAACABQgJAIAKAAQAAIACAAMEBQYnJgqAAAESBgcIAgDuH6CQMBU2NgOQArKi21ugdF5C97u3lMKukkzzK5mWhjpQYfNYlo2z8wFWZSSUdOi9/nK9XbhzV4OuTbyx5M3B0c2lYywD"
  },
  "4590081419630270": {
    "name": "Composter",
    "tensor": "KLUv/WAmAdUDAFQDAWWQkG4AAAAAIP9/FAAAAAEAAAADAACABYAHCACACQAHgAQAAAAFBh8hCoAAAQ4BAQBFQAEdoKCeKWxsBnACQ2PmAVs4RUZGNOQMiLsPTXVpR05GKjQN5NEoOwtiIROwBNePt98W59zRz+9cH7Bm4dtPLp44bRgZ"
  }
}